TRT-100300-EntropyCalibration2
images: 3bec012b
/model.0/conv/Conv_output_0: 3eca0fc8
/model.0/act/Sigmoid_output_0: 3c010a14
/model.0/act/Mul_output_0: 3d94bd80
/model.1/conv/Conv_output_0: 3ee3f0be
/model.1/act/Sigmoid_output_0: 3c010a14
/model.1/act/Mul_output_0: 3e96a4f1
/model.2/cv1/conv/Conv_output_0: 3ed09bb4
/model.2/cv1/act/Sigmoid_output_0: 3c010a14
/model.2/cv1/act/Mul_output_0: 3e161628
/model.8/cv2/conv/Conv_output_0: 3e50c6e3
/model.8/m.0/Add_output_0: 3e3260c5
output0: 3c626dd0
/model.8/m.0/cv2/act/Mul_output_0: 3e0d8c6c
/model.9/linear/Gemm_output_0: 3d038b71
/model.8/m.0/cv2/conv/Conv_output_0: 3ecc91ec
/model.2/Split_output_0: 3e17df05
/model.8/cv1/act/Mul_output_0: 3d957258
/model.8/m.0/cv2/act/Sigmoid_output_0: 3c07ffc2
/model.9/conv/conv/Conv_output_0: 3f011c79
/model.2/Split_output_1: 3e0f0d72
/model.2/m.0/cv1/conv/Conv_output_0: 3f1c050b
/model.2/m.0/cv1/act/Sigmoid_output_0: 3c010a14
/model.2/m.0/cv1/act/Mul_output_0: 3dc07769
/model.2/m.0/cv2/conv/Conv_output_0: 3eba97d5
/model.2/m.0/cv2/act/Sigmoid_output_0: 3c010a14
/model.2/m.0/cv2/act/Mul_output_0: 3ea0ee0b
/model.2/m.0/Add_output_0: 3ee40ec7
/model.2/Concat_output_0: 3e99ecd3
/model.2/cv2/conv/Conv_output_0: 3f36b7b3
/model.2/cv2/act/Sigmoid_output_0: 3c010a14
/model.2/cv2/act/Mul_output_0: 3e90089d
/model.3/conv/Conv_output_0: 3e3c006a
/model.3/act/Sigmoid_output_0: 3c010a14
/model.3/act/Mul_output_0: 3e15e5fc
/model.4/cv1/conv/Conv_output_0: 3ef0f0cc
/model.4/cv1/act/Sigmoid_output_0: 3c010a14
/model.4/cv1/act/Mul_output_0: 3e89e27f
/model.8/cv2/act/Sigmoid_output_0: 3c007477
/model.8/m.0/cv1/act/Sigmoid_output_0: 3c072469
/model.9/linear/Gemm_output: 3cd35b64
/model.8/m.0/cv1/conv/Conv_output_0: 3ec9f3a6
model.9.linear.weight_output: 39aee8a9
model.9.linear.bias_output: 39143193
/model.4/Split_output_0: 3e8c40cb
/model.9/Flatten_output_0: 3cc0e22b
/model.8/Split_output_1: 3d694743
/model.9/conv/act/Sigmoid_output_0: 3c010a14
/model.4/Split_output_1: 3dc25ee8
/model.4/m.0/cv1/conv/Conv_output_0: 3e455903
/model.4/m.0/cv1/act/Sigmoid_output_0: 3c073e79
/model.4/m.0/cv1/act/Mul_output_0: 3dc240bc
/model.4/m.0/cv2/conv/Conv_output_0: 3e4c5439
/model.4/m.0/cv2/act/Sigmoid_output_0: 3c031615
/model.4/m.0/cv2/act/Mul_output_0: 3dc538d2
/model.4/m.0/Add_output_0: 3e3b739d
/model.4/m.1/cv1/conv/Conv_output_0: 3e02fddc
/model.4/m.1/cv1/act/Sigmoid_output_0: 3bff91ad
/model.4/m.1/cv1/act/Mul_output_0: 3cb1f3ae
/model.4/m.1/cv2/conv/Conv_output_0: 3ebf794c
/model.4/m.1/cv2/act/Sigmoid_output_0: 3c010a14
/model.4/m.1/cv2/act/Mul_output_0: 3e8de427
/model.4/m.1/Add_output_0: 3e8d9b44
/model.4/Concat_output_0: 3e939d91
/model.4/cv2/conv/Conv_output_0: 3e7dd851
/model.4/cv2/act/Sigmoid_output_0: 3c01121c
/model.4/cv2/act/Mul_output_0: 3d688998
/model.5/conv/Conv_output_0: 3e8d2e0e
/model.5/act/Sigmoid_output_0: 3c03d6be
/model.5/act/Mul_output_0: 3dbf5707
/model.6/cv1/conv/Conv_output_0: 3e9306dc
/model.6/cv1/act/Sigmoid_output_0: 3c010a14
/model.6/cv1/act/Mul_output_0: 3e10d93e
/model.8/cv2/act/Mul_output_0: 3d257a74
/model.9/Softmax_output: 3c626dd0
/model.8/cv1/act/Sigmoid_output_0: 3c01108b
/model.8/m.0/cv1/act/Mul_output_0: 3d5cc014
/model.8/Split_output_0: 3dc6e5a6
ONNXTRT_Broadcast_output: 39143193
/model.6/Split_output_0: 3e114033
/model.8/Concat_output_0: 3dcc07f1
/model.9/conv/act/Mul_output_0: 3e92eec8
/model.9/pool/GlobalAveragePool_output_0: 3cc0e22b
/model.6/Split_output_1: 3d8f0999
/model.6/m.0/cv1/conv/Conv_output_0: 3e32d694
/model.6/m.0/cv1/act/Sigmoid_output_0: 3c010df5
/model.6/m.0/cv1/act/Mul_output_0: 3d2593e4
/model.6/m.0/cv2/conv/Conv_output_0: 3e5de500
/model.6/m.0/cv2/act/Sigmoid_output_0: 3c011200
/model.6/m.0/cv2/act/Mul_output_0: 3dc74ce1
/model.6/m.0/Add_output_0: 3dde5cd6
/model.6/m.1/cv1/conv/Conv_output_0: 3e45adb5
/model.6/m.1/cv1/act/Sigmoid_output_0: 3c04b07f
/model.6/m.1/cv1/act/Mul_output_0: 3d4657b1
/model.6/m.1/cv2/conv/Conv_output_0: 3f104f2f
/model.6/m.1/cv2/act/Sigmoid_output_0: 3c010a14
/model.6/m.1/cv2/act/Mul_output_0: 3ea1d00d
/model.6/m.1/Add_output_0: 3f141ab6
/model.6/Concat_output_0: 3e8da0b6
/model.6/cv2/conv/Conv_output_0: 3e8b557d
/model.6/cv2/act/Sigmoid_output_0: 3c073aed
/model.6/cv2/act/Mul_output_0: 3d2b69e2
/model.7/conv/Conv_output_0: 3e50080f
/model.7/act/Sigmoid_output_0: 3c099e33
/model.7/act/Mul_output_0: 3d91cde4
/model.8/cv1/conv/Conv_output_0: 3e5d40fb
